11011111110100110001101010001110
00110101001111001000010001101100
00001010110000100001001110000110
01101011001110001111000011011100
11010110101000011110110001111000
01100110000100001001100000001110
10111000010011011101001111010000
00001000000100011110100110001010
01010111010100101110111101011101
00110011101111101011000000011101
10000111110000001010100110101000
00001011011100010101010001001011
10110001001101111100110001011010
10000110100110011001101011011111
00101110100001110110101110111011
11100001010100101011111111111001
11111011001111100001111110110010
11010111000110110000011010010000
01111100010000010110000101100110
11100001001110110000100000011100
00101101010001001111001111000001
10000001100011001010001000001111
11011100000110101010110101001011
00011101111100101100000011111111
01010011001001000111110111100000
01100111110001001110111001111010
00001111010000100011000001111010
00001001001110111101100110111101
00101110001110010111110011000010
10111110010110100110101101010100
11000101011100000001001000001110
10011010000000110001000110101011
