00010001010000110010000011010101
10010100110001010010010111110101
00100101110010010101010100011110
01011000101100110111101001001010
00100101101110101100010110110101
11000111110010010011010010111010
11011110100000001111100111000110
11001000111001100101001011111011
11011011010111111101011000111111
01111111011011001110111110110011
10001100011110110111100110101111
00100101110011001001100010111001
01011101110111001100011001100000
00110110000101101011101110010011
00010101011000000101000100011101
00001001110100000110000010100100
00011010010010110111110000011110
01000000011110100110110001100010
10000111110010111100011101001010
11110110011011001011101111101100
11010100000000011100110000111001
01011001000010001111001010111101
00010000110011111110010010000001
01100111111101101100111110010000
00000001101101111011100100001101
10100111000111010010001001100010
01101000101011010100110110111100
01111001101011101110000011110110
00100101110100011100110101100011
11011111000000101111010111101111
00110001100000111000101100001011
01111011111100000010100010010010
