10010011011011100100111101010111
01110100011010001100001101100101
01101100001110010110011011001110
10100101001001011101100011000101
00111110110011110001011001101110
00011000001010101001010100100101
10010010001101110110001100100100
10101011100111100011101011001000
11101001101100000111011110100100
11001100000111000101101001101010
00101000101110100110010001011110
01100011000011010011000000111000
11000111000011111011000110000110
00100010111110010101100110100110
00100000000101110111101000100001
11100001000110101011001100100110
11100010101111011100101011010101
00011111100011111011001100111000
01111100011100101010101001110001
10101000001111100100000000000001
11001010010110011100001010010100
00011000110001011100011000110000
01100111111010111000011101011100
10010000010100111110111111110101
01001111000000110001010111000000
10000011101011011100000011111000
01001111001011011111010101011111
01101100110111001100010101110001
01111100000001000010110010111001
01100000110001000111001010001100
11011101000100000011011011100011
00110000110001100100101000100110
